{
  "vocab": {
    "fu": 803,
    "k": 51,
    "am": 216,
    "ins": 541,
    "prome": 769,
    "modela": 967,
    "otimiza": 357,
    "ist": 238,
    "e": 7,
    "o": 16,
    "segu": 483,
    "fo": 383,
    "má": 301,
    "ética": 573,
    "rante": 976,
    "plo": 529,
    "oteca": 974,
    "is.": 242,
    "continua": 287,
    "cont": 934,
    "lização": 938,
    "tor": 272,
    "ndo": 147,
    "dados": 319,
    "automa": 973,
    "tura": 188,
    "ia": 107,
    "web": 342,
    "problemas": 824,
    "ban": 673,
    "vem": 716,
    "o,": 797,
    "inte": 207,
    "lingua": 352,
    "duca": 611,
    "EN": 772,
    "cache": 899,
    "uma": 213,
    "comple": 293,
    "conec": 610,
    "dem": 827,
    "sta": 579,
    "ts": 602,
    "ender": 686,
    "hist": 900,
    "ck": 350,
    "trabal": 923,
    "bri": 929,
    "revolucion": 683,
    "mudanças": 917,
    "6": 92,
    "ver": 205,
    "cria": 270,
    "mação": 906,
    "simp": 412,
    "tando": 514,
    "gu": 300,
    "res": 169,
    "ente": 366,
    "poder": 859,
    "y": 62,
    "mazena": 747,
    "compreensão": 948,
    "to": 129,
    "social": 506,
    "ot": 756,
    "experiência": 612,
    "3": 70,
    "contex": 990,
    "in": 104,
    "da": 106,
    "teria": 816,
    ":": 89,
    "un": 170,
    "ni": 211,
    "lica": 225,
    "processos": 912,
    "ambienta": 813,
    "gen": 271,
    "ten": 260,
    "tica": 174,
    "ub": 845,
    "ir": 670,
    "cional": 329,
    "h": 55,
    "Java": 316,
    "5": 77,
    "á": 53,
    "cu": 183,
    "combina": 655,
    "fer": 133,
    "entes": 291,
    "cul": 280,
    "work": 440,
    "Scrip": 499,
    "RA": 645,
    "VM": 753,
    "Bra": 843,
    "il": 913,
    "ces": 209,
    "ambi": 474,
    "las": 975,
    "servi": 492,
    "<EOS>": 3,
    "t": 5,
    "humana": 574,
    "diciona": 886,
    "Õ": 88,
    "render": 596,
    "das.": 581,
    "Ê": 81,
    "H": 34,
    "gine": 486,
    "micros": 672,
    "compre": 561,
    "entre": 326,
    "releva": 776,
    "ismos": 791,
    "cula": 490,
    "fe": 448,
    "mun": 773,
    "ft": 782,
    "dades": 274,
    "õ": 23,
    "fun": 250,
    "o.": 422,
    "logia": 544,
    "ticos": 799,
    "imp": 425,
    "pu": 281,
    "linguagem": 410,
    "física": 455,
    "renderização": 656,
    "JS": 933,
    "prote": 807,
    "nu": 599,
    "inam": 981,
    "artifi": 963,
    "za": 142,
    "ção.": 304,
    "oferecem": 732,
    "Á": 73,
    "tifi": 893,
    "lh": 283,
    "ca": 109,
    "plataforma": 511,
    "ções": 176,
    "vos": 558,
    "cient": 847,
    "ytic": 733,
    "sico": 386,
    "tindo": 604,
    "aria": 453,
    "n": 10,
    "js": 472,
    "isa": 586,
    "popula": 343,
    "padrão": 950,
    "tin": 215,
    "códi": 537,
    "ML": 266,
    "xe": 555,
    "real": 557,
    "ge": 306,
    "be": 367,
    "l.": 253,
    "VI": 770,
    "evolu": 689,
    "dio": 972,
    "q": 44,
    "são": 493,
    "ô": 71,
    "conhe": 399,
    "tiva": 231,
    "mundia": 927,
    "La": 984,
    "computa": 321,
    "ru": 985,
    "enta": 348,
    "pol": 551,
    "sa": 171,
    "trica": 658,
    "tria": 823,
    "gica": 597,
    "qu": 139,
    "bo": 898,
    "dia": 409,
    "JavaScrip": 632,
    "ns": 254,
    "sintaxe": 920,
    "cra": 401,
    "maior": 881,
    "as": 164,
    "modelos": 780,
    "memória": 884,
    "ísica": 447,
    "arch": 814,
    "ex": 182,
    "algor": 802,
    "brasileira": 457,
    "C": 8,
    "tiv": 261,
    "mu": 224,
    "t.": 381,
    "comunica": 519,
    "basea": 736,
    "sua": 891,
    "demo": 360,
    "volu": 256,
    "tografia": 759,
    "conce": 835,
    "ti": 110,
    "s.": 149,
    "tes": 163,
    "taxe": 904,
    "ális": 952,
    "dom": 630,
    "plas": 995,
    "po": 227,
    ")": 60,
    "la": 124,
    "conhecimento": 589,
    "gni": 639,
    "sona": 959,
    "us": 210,
    "ica": 138,
    "mos": 302,
    "ote": 928,
    "og": 191,
    "-": 59,
    "proble": 697,
    "li": 122,
    "diversidade": 662,
    "Brasil": 992,
    "gita": 651,
    "ope": 752,
    "M": 47,
    "influ": 664,
    "grá": 728,
    "democra": 438,
    "contin": 265,
    "quí": 392,
    "bli": 896,
    "cha": 419,
    "cos": 192,
    "funda": 355,
    "cial": 214,
    "estu": 288,
    "diferentes": 956,
    "ecos": 583,
    "distribuí": 436,
    "sus": 815,
    "pr": 524,
    "gan": 354,
    "compi": 876,
    "ser": 263,
    "f": 12,
    "de": 103,
    "rele": 659,
    "inteli": 775,
    "lu": 267,
    "recursos": 968,
    "rela": 536,
    "computação": 580,
    "des": 140,
    "imple": 966,
    "edades": 521,
    "lin": 947,
    "0": 93,
    "um": 237,
    "pla": 282,
    "fi": 212,
    "ria": 184,
    "revolucionou": 749,
    "está": 996,
    "se": 199,
    "empresaria": 563,
    "dade": 161,
    "Ç": 78,
    "so": 158,
    "AP": 463,
    "ga": 230,
    "en": 100,
    "les": 465,
    "gicos": 792,
    "sob": 476,
    "permitindo": 804,
    "<BOS>": 2,
    "iza": 290,
    "ú": 64,
    "indo": 333,
    "inclu": 806,
    "ens": 347,
    "2": 85,
    ".": 24,
    "De": 713,
    "es": 98,
    "mes": 549,
    "Google": 647,
    "materia": 857,
    "or": 115,
    "ciente": 914,
    "teoria": 980,
    "brasileiro": 771,
    "ro": 119,
    "ão": 121,
    "big": 871,
    "ao": 391,
    "bar": 785,
    "mobi": 810,
    "armazenamento": 969,
    "trop": 841,
    "nidade": 822,
    "CI": 657,
    "lidera": 774,
    "gráficos": 853,
    "leve": 922,
    "ração": 669,
    "pes": 592,
    "complexas.": 978,
    "fa": 275,
    "wor": 433,
    "essencial": 527,
    "investiga": 431,
    "esca": 681,
    "Co": 451,
    "it": 328,
    "tivas.": 997,
    "Re": 312,
    "mode": 404,
    "Py": 475,
    "para": 131,
    "propriedades": 708,
    "open": 532,
    "permite": 477,
    "con": 134,
    "pú": 919,
    "th": 449,
    "framework": 576,
    "hi": 671,
    "Ó": 86,
    "vida": 916,
    "sis": 203,
    "(": 63,
    "do.": 420,
    "intera": 441,
    "neura": 866,
    "S": 32,
    "ter": 200,
    "mi": 167,
    "foca": 826,
    "até": 603,
    "ling": 245,
    "ud": 932,
    "cr": 277,
    "identi": 982,
    "os,": 943,
    "F": 54,
    "ta.": 892,
    "Ar": 911,
    "cére": 977,
    "estrutura": 407,
    "HT": 787,
    "qua": 530,
    "ri": 144,
    "nos": 547,
    "cidade": 677,
    "Cha": 878,
    "métrica": 784,
    "mer": 528,
    "revoluciona": 578,
    "An": 761,
    "tivos": 546,
    "dera": 543,
    "bilidade": 268,
    "ciona": 190,
    "inf": 564,
    "rica": 560,
    "lingu": 595,
    "A": 37,
    "dados.": 921,
    "inter": 365,
    "ren": 310,
    "uni": 382,
    "matemática": 569,
    "mb": 829,
    "v": 52,
    "huma": 308,
    "ab": 432,
    "wa": 680,
    "promo": 808,
    "pat": 818,
    "ch": 208,
    "globa": 819,
    "oferece": 141,
    "comun": 466,
    "cres": 693,
    "ciência": 345,
    "s": 4,
    "Apache": 940,
    "contra": 993,
    "úde": 652,
    "nç": 244,
    "is,": 613,
    "comporta": 500,
    "m": 18,
    "espa": 727,
    "moder": 336,
    "através": 398,
    "dores": 462,
    "lia": 821,
    "ce": 120,
    "dor": 901,
    "fia": 370,
    "cons": 444,
    "tera": 830,
    "influencia": 809,
    "desenvolvi": 235,
    "desenvolvimento": 248,
    "ware": 874,
    "sobre": 518,
    "siona": 786,
    "uti": 565,
    "L": 27,
    "Web": 396,
    "parti": 946,
    "nce": 296,
    "da.": 471,
    "pre": 397,
    "mática": 402,
    "crip": 368,
    "bus": 531,
    "peri": 337,
    "mica": 338,
    "di": 153,
    "8": 76,
    "menta": 217,
    "lon": 767,
    "ismo": 488,
    "i": 9,
    "que": 189,
    "E": 42,
    "Ú": 91,
    "gens": 701,
    "an": 177,
    "usa": 284,
    "conecta": 725,
    "ker": 964,
    "ha": 459,
    "tema": 222,
    "era": 624,
    "processamento": 626,
    "%": 83,
    "inan": 909,
    "car": 971,
    "ag": 840,
    "st": 427,
    "togra": 640,
    "álise": 958,
    "gem": 279,
    "algorit": 849,
    "cimento": 390,
    "tos": 201,
    "lab": 696,
    "neuro": 571,
    "go": 292,
    "mem": 679,
    "R": 29,
    "che": 372,
    "temp": 233,
    "omia": 707,
    "OL": 720,
    "qui": 526,
    "zou": 699,
    "cos.": 805,
    "Ap": 811,
    "persona": 965,
    "tex": 567,
    "aplica": 262,
    "rá": 373,
    "esta": 380,
    "lei": 285,
    "nças": 757,
    "ã": 26,
    "realidade": 863,
    "cur": 685,
    "produ": 421,
    "proje": 615,
    "ál": 614,
    "Goog": 644,
    "silei": 295,
    "é": 58,
    "fere": 136,
    "cendo": 361,
    "r": 17,
    "pi": 273,
    "VR": 416,
    "segurança": 676,
    "cion": 643,
    "React": 864,
    ".js": 660,
    "microservi": 868,
    "ble": 522,
    "ol": 130,
    "pres": 264,
    "l": 14,
    "lti": 363,
    "compon": 726,
    "olog": 236,
    "psicologia": 635,
    "ve": 155,
    "te": 108,
    "ES": 793,
    "desenvolve": 467,
    "ele": 638,
    "tr": 232,
    "los": 349,
    "com": 116,
    "na": 125,
    "ferramenta": 779,
    "ística": 405,
    "orta": 411,
    "ló": 577,
    "inv": 408,
    "d": 19,
    "tivi": 496,
    "fica": 234,
    "brasilei": 303,
    "ância": 653,
    "aprendi": 833,
    "ream": 750,
    "z": 43,
    "tiva.": 794,
    "ec": 550,
    "saúde": 703,
    "moderna": 711,
    "ê": 45,
    "id": 468,
    "gra": 206,
    "B": 65,
    "ps": 605,
    "analytics": 926,
    "ora": 417,
    "X": 66,
    "dis": 585,
    "faci": 895,
    "organismos": 890,
    "Y": 90,
    "glo": 435,
    "gia": 375,
    "ín": 515,
    "mai": 556,
    "mentos": 450,
    "is": 114,
    "ho": 510,
    "ecossistema": 619,
    "entra": 637,
    "va": 143,
    "performance.": 764,
    "mú": 545,
    "SS": 738,
    "u": 35,
    "í": 11,
    "pri": 400,
    "vi": 150,
    "re": 118,
    "fis": 739,
    "programação": 961,
    "ção,": 485,
    "IA": 269,
    "pro": 146,
    "mo": 151,
    "bra": 259,
    "source": 516,
    "JVM": 882,
    "tra": 152,
    "IC": 887,
    "si": 148,
    "teor": 634,
    "dire": 706,
    "ç": 22,
    "código": 552,
    "acesso": 875,
    "pache": 885,
    "istribu": 311,
    "pe": 198,
    "não": 862,
    "resol": 748,
    "lo": 160,
    "ra": 99,
    "est": 478,
    "tual": 760,
    "ven": 648,
    "distribui": 979,
    "ML.": 717,
    "gência": 877,
    "fundamental": 745,
    "low": 715,
    "pula": 314,
    "ran": 588,
    "neu": 403,
    "cli": 663,
    "ncia": 181,
    "gerencia": 721,
    "cia": 135,
    "opera": 842,
    "preser": 850,
    "encia": 389,
    "gi": 258,
    "ina": 249,
    "pen": 257,
    "nica": 452,
    "ças": 667,
    "ífica": 705,
    "ign": 744,
    "âne": 790,
    "depen": 908,
    "componentes": 751,
    "tiza": 335,
    "sendo": 504,
    "ços": 629,
    "envol": 194,
    "indi": 983,
    "repres": 925,
    "ferramentas": 800,
    "ras": 591,
    "tas": 650,
    "ini": 723,
    "sistema": 229,
    "performance": 305,
    "ores": 461,
    "muda": 616,
    "ori": 902,
    "web.": 869,
    "usando": 867,
    "có": 378,
    "ítica": 568,
    "p": 25,
    "forma": 173,
    "cri": 278,
    "ologia": 239,
    "compreens": 941,
    "D": 21,
    "&": 94,
    "s,": 309,
    "ci": 127,
    "on": 179,
    "ciais": 525,
    "mar": 834,
    "G": 33,
    "do": 105,
    "eb": 223,
    "su": 298,
    "alta": 631,
    "nativa": 960,
    "múltip": 955,
    "tro": 243,
    "melhora": 724,
    "apren": 695,
    "especial": 729,
    "sin": 731,
    "al": 186,
    "desc": 654,
    "taforma": 501,
    "sem": 482,
    "micos": 903,
    "J": 46,
    "compu": 297,
    "tec": 315,
    "natura": 730,
    "tu": 145,
    "mp": 172,
    "ct": 494,
    "templa": 289,
    "vação": 702,
    "anal": 479,
    "ma": 111,
    "man": 812,
    "V": 48,
    "especialmente": 783,
    "organ": 460,
    "GUI": 709,
    "relevante": 924,
    "visualiza": 575,
    "bilidade.": 758,
    "ess": 340,
    "contro": 762,
    "mia": 512,
    "1": 74,
    "jog": 951,
    "sociais": 742,
    "Ã": 79,
    "bi": 162,
    "cor": 880,
    "endo": 221,
    "er": 102,
    "facili": 930,
    "experi": 393,
    "digita": 682,
    "analytic": 763,
    "ência": 187,
    "comb": 508,
    "pa": 117,
    "avança": 894,
    "vol": 168,
    "der": 202,
    "permi": 341,
    "fra": 358,
    "efi": 989,
    "pad": 430,
    "desde": 540,
    "complex": 413,
    "for": 156,
    "ária": 839,
    "medi": 848,
    "aplicações": 344,
    "ing": 175,
    "source.": 755,
    "ur": 339,
    "cursos": 897,
    "lera": 915,
    "bio": 495,
    "desa": 601,
    "à": 95,
    "ta": 113,
    "doen": 865,
    "mé": 377,
    "educa": 646,
    "ntes": 737,
    "bu": 255,
    "itos": 533,
    "soci": 609,
    "j": 31,
    "base": 434,
    "bele": 668,
    "au": 371,
    "padr": 570,
    "ine": 276,
    "ou": 240,
    "ty": 498,
    "multi": 778,
    "por": 323,
    "AR": 429,
    "U": 39,
    "9": 75,
    "algoritmos": 873,
    "aprendiza": 837,
    "rança": 542,
    "revela": 743,
    "reve": 649,
    "data": 566,
    "ári": 722,
    "estra": 910,
    "ener": 942,
    "â": 56,
    "cultura": 332,
    "ava": 247,
    "ó": 57,
    "múltiplos": 994,
    "mol": 600,
    "ficos": 674,
    "encial": 481,
    "versi": 502,
    "Í": 82,
    "ting": 851,
    "sos": 426,
    "thon": 675,
    "economia": 712,
    "ima": 454,
    "ent": 218,
    "simpli": 497,
    "simplifica": 594,
    "<UNK>": 1,
    "mate": 464,
    "N": 30,
    "exam": 704,
    "promete": 838,
    "lidade": 219,
    "investi": 415,
    "psico": 443,
    "diversi": 636,
    "Ma": 633,
    "tros": 937,
    "transforma": 788,
    "fundamenta": 445,
    "entraliza": 861,
    "trans": 320,
    "trutura": 406,
    "compila": 907,
    "múlti": 608,
    "funciona": 935,
    "ace": 617,
    "tru": 356,
    "W": 61,
    "OLOG": 987,
    "GP": 754,
    "ória": 503,
    "difer": 691,
    "ig": 458,
    "áve": 331,
    "ona": 180,
    "melh": 487,
    "visua": 473,
    "l,": 698,
    "OG": 741,
    "ua": 178,
    "per": 166,
    "foi": 846,
    "T": 41,
    "le": 132,
    "tivo": 688,
    "Open": 666,
    "sistemas": 359,
    "estuda": 294,
    "Q": 38,
    "men": 123,
    "##": 379,
    "as.": 548,
    "estabele": 718,
    "política": 801,
    "representa": 945,
    "mente": 228,
    "incluindo": 939,
    "Brasi": 858,
    "colab": 795,
    "nte": 334,
    "atrav": 395,
    "In": 879,
    "rea": 364,
    "te.": 957,
    "espe": 362,
    "ew": 953,
    "at": 931,
    "popular": 520,
    "enas": 988,
    "comportamento": 582,
    "os": 112,
    "no": 195,
    "g": 15,
    "democratiza": 593,
    "lear": 777,
    "me": 185,
    "inc": 505,
    "messa": 844,
    "je": 437,
    "vis": 376,
    "engine": 661,
    "#": 84,
    "mas": 439,
    "pos": 509,
    "vendo": 625,
    "té": 313,
    "Python": 678,
    "tecnologia": 414,
    "econ": 507,
    "cis": 883,
    "tência": 888,
    "mento": 157,
    "aces": 623,
    "UI": 553,
    "bro": 856,
    "propri": 687,
    "ização": 480,
    "oló": 700,
    "turo": 986,
    "espec": 905,
    "co": 101,
    "progra": 735,
    "ás": 740,
    "cé": 870,
    "enti": 836,
    "a": 6,
    "ber": 627,
    "armazena": 781,
    "revolu": 330,
    "esti": 327,
    "ne": 204,
    "4": 87,
    "sour": 491,
    "SQL": 734,
    "le.": 944,
    "projetos": 796,
    "c": 13,
    "ging": 694,
    "maz": 517,
    "<PAD>": 0,
    "du": 220,
    "Z": 80,
    "mundo": 428,
    "interfa": 936,
    "mework": 513,
    "áveis": 825,
    "ís": 246,
    "integra": 346,
    "ena": 719,
    "ram": 423,
    "proces": 307,
    "performa": 299,
    "tores": 628,
    "ger": 618,
    "tion": 535,
    "API": 554,
    "templates": 324,
    "tic": 534,
    "desenvol": 196,
    "tividade": 562,
    "+": 96,
    "examina": 768,
    "busca": 855,
    "K": 50,
    "comunicação": 714,
    "ân": 962,
    "mente.": 991,
    "ob": 641,
    "Go": 538,
    "em": 126,
    "conheci": 949,
    "escala": 766,
    "ofere": 137,
    "criação": 692,
    "ar": 165,
    "Me": 817,
    "sões": 828,
    "\"": 69,
    "versa": 690,
    "és": 394,
    "ias": 590,
    "química": 470,
    "áveis.": 852,
    "ard": 665,
    "cros": 418,
    "distribu": 322,
    "miza": 325,
    "linguística": 710,
    "CSS": 872,
    "duz": 954,
    "oti": 353,
    "bal": 489,
    "ção": 128,
    "qualidade": 889,
    "w": 49,
    "pon": 860,
    "atra": 374,
    "par": 369,
    "O": 68,
    "/": 72,
    "liza": 226,
    "ture": 621,
    "ind": 684,
    "tivas": 587,
    "comp": 159,
    "acelera": 918,
    "dos.": 385,
    "x": 67,
    "processa": 446,
    "futuro": 998,
    "íve": 456,
    "os.": 251,
    "he": 318,
    "nal": 424,
    "empres": 469,
    "ões": 154,
    "das": 241,
    "As": 384,
    ",": 20,
    "cl": 854,
    "ap": 197,
    "Rea": 598,
    "ino": 620,
    "oferecendo": 442,
    "ba": 351,
    "P": 36,
    "cla": 607,
    "ervi": 622,
    "mais": 484,
    "ferra": 746,
    "quan": 789,
    "global": 820,
    "cina": 970,
    "ribu": 286,
    "ul": 523,
    "JavaScript": 765,
    "gor": 572,
    "co.": 999,
    "bas": 388,
    "Pro": 831,
    "formações": 539,
    "TE": 559,
    "nça": 317,
    "I": 40,
    "b": 28,
    "niza": 606,
    "'": 97,
    "tive": 832,
    "biologia": 798,
    "tecn": 387,
    "dos": 193,
    "como": 252,
    "auto": 584,
    "QL": 642
  },
  "reverse_vocab": {
    "527": "essencial",
    "912": "processos",
    "202": "der",
    "818": "pat",
    "190": "ciona",
    "684": "ind",
    "743": "revela",
    "655": "combina",
    "346": "integra",
    "218": "ent",
    "574": "humana",
    "827": "dem",
    "288": "estu",
    "385": "dos.",
    "450": "mentos",
    "11": "í",
    "512": "mia",
    "854": "cl",
    "808": "promo",
    "360": "demo",
    "626": "processamento",
    "589": "conhecimento",
    "856": "bro",
    "897": "cursos",
    "377": "mé",
    "680": "wa",
    "937": "tros",
    "685": "cur",
    "80": "Z",
    "756": "ot",
    "795": "colab",
    "880": "cor",
    "714": "comunicação",
    "439": "mas",
    "532": "open",
    "337": "peri",
    "4": "s",
    "318": "he",
    "339": "ur",
    "963": "artifi",
    "975": "las",
    "951": "jog",
    "310": "ren",
    "868": "microservi",
    "271": "gen",
    "461": "ores",
    "128": "ção",
    "570": "padr",
    "604": "tindo",
    "689": "evolu",
    "774": "lidera",
    "633": "Ma",
    "563": "empresaria",
    "884": "memória",
    "740": "ás",
    "681": "esca",
    "365": "inter",
    "915": "lera",
    "658": "trica",
    "698": "l,",
    "825": "áveis",
    "152": "tra",
    "933": "JS",
    "345": "ciência",
    "427": "st",
    "983": "indi",
    "989": "efi",
    "32": "S",
    "614": "ál",
    "941": "compreens",
    "46": "J",
    "653": "ância",
    "734": "SQL",
    "184": "ria",
    "358": "fra",
    "742": "sociais",
    "632": "JavaScrip",
    "892": "ta.",
    "839": "ária",
    "63": "(",
    "435": "glo",
    "753": "VM",
    "268": "bilidade",
    "88": "Õ",
    "407": "estrutura",
    "396": "Web",
    "233": "temp",
    "12": "f",
    "77": "5",
    "112": "os",
    "272": "tor",
    "364": "rea",
    "605": "ps",
    "874": "ware",
    "514": "tando",
    "479": "anal",
    "652": "úde",
    "458": "ig",
    "794": "tiva.",
    "408": "inv",
    "278": "cri",
    "960": "nativa",
    "780": "modelos",
    "204": "ne",
    "56": "â",
    "260": "ten",
    "263": "ser",
    "781": "armazena",
    "981": "inam",
    "636": "diversi",
    "328": "it",
    "174": "tica",
    "336": "moder",
    "703": "saúde",
    "662": "diversidade",
    "886": "diciona",
    "356": "tru",
    "686": "ender",
    "185": "me",
    "73": "Á",
    "134": "con",
    "719": "ena",
    "258": "gi",
    "773": "mun",
    "302": "mos",
    "410": "linguagem",
    "101": "co",
    "398": "através",
    "536": "rela",
    "559": "TE",
    "811": "Ap",
    "99": "ra",
    "96": "+",
    "771": "brasileiro",
    "929": "bri",
    "484": "mais",
    "496": "tivi",
    "201": "tos",
    "582": "comportamento",
    "798": "biologia",
    "454": "ima",
    "95": "à",
    "726": "compon",
    "259": "bra",
    "857": "materia",
    "922": "leve",
    "169": "res",
    "54": "F",
    "273": "pi",
    "419": "cha",
    "421": "produ",
    "678": "Python",
    "444": "cons",
    "837": "aprendiza",
    "149": "s.",
    "936": "interfa",
    "624": "era",
    "375": "gia",
    "105": "do",
    "910": "estra",
    "415": "investi",
    "980": "teoria",
    "67": "x",
    "594": "simplifica",
    "694": "ging",
    "801": "política",
    "916": "vida",
    "711": "moderna",
    "843": "Bra",
    "41": "T",
    "203": "sis",
    "876": "compi",
    "902": "ori",
    "235": "desenvolvi",
    "994": "múltiplos",
    "526": "qui",
    "292": "go",
    "406": "trutura",
    "727": "espa",
    "297": "compu",
    "405": "ística",
    "676": "segurança",
    "885": "pache",
    "175": "ing",
    "720": "OL",
    "100": "en",
    "253": "l.",
    "195": "no",
    "879": "In",
    "412": "simp",
    "173": "forma",
    "596": "render",
    "691": "difer",
    "939": "incluindo",
    "758": "bilidade.",
    "224": "mu",
    "43": "z",
    "516": "source",
    "94": "&",
    "384": "As",
    "830": "tera",
    "950": "padrão",
    "165": "ar",
    "996": "está",
    "251": "os.",
    "60": ")",
    "855": "busca",
    "992": "Brasil",
    "523": "ul",
    "629": "ços",
    "501": "taforma",
    "426": "sos",
    "49": "w",
    "966": "imple",
    "349": "los",
    "158": "so",
    "402": "mática",
    "70": "3",
    "463": "AP",
    "475": "Py",
    "335": "tiza",
    "717": "ML.",
    "92": "6",
    "679": "mem",
    "155": "ve",
    "33": "G",
    "391": "ao",
    "765": "JavaScript",
    "826": "foca",
    "590": "ias",
    "242": "is.",
    "978": "complexas.",
    "319": "dados",
    "478": "est",
    "25": "p",
    "511": "plataforma",
    "611": "duca",
    "256": "volu",
    "14": "l",
    "341": "permi",
    "616": "muda",
    "75": "9",
    "900": "hist",
    "767": "lon",
    "97": "'",
    "531": "bus",
    "314": "pula",
    "587": "tivas",
    "979": "distribui",
    "301": "má",
    "312": "Re",
    "133": "fer",
    "191": "og",
    "333": "indo",
    "540": "desde",
    "931": "at",
    "166": "per",
    "442": "oferecendo",
    "864": "React",
    "592": "pes",
    "307": "proces",
    "222": "tema",
    "26": "ã",
    "555": "xe",
    "351": "ba",
    "779": "ferramenta",
    "813": "ambienta",
    "755": "source.",
    "460": "organ",
    "583": "ecos",
    "84": "#",
    "812": "man",
    "58": "é",
    "208": "ch",
    "797": "o,",
    "320": "trans",
    "982": "identi",
    "269": "IA",
    "172": "mp",
    "875": "acesso",
    "991": "mente.",
    "777": "lear",
    "785": "bar",
    "688": "tivo",
    "958": "álise",
    "601": "desa",
    "525": "ciais",
    "647": "Google",
    "661": "engine",
    "962": "ân",
    "249": "ina",
    "870": "cé",
    "490": "cula",
    "115": "or",
    "440": "work",
    "640": "togra",
    "0": "<PAD>",
    "623": "aces",
    "761": "An",
    "914": "ciente",
    "437": "je",
    "917": "mudanças",
    "150": "vi",
    "841": "trop",
    "284": "usa",
    "66": "X",
    "699": "zou",
    "285": "lei",
    "157": "mento",
    "217": "menta",
    "392": "quí",
    "840": "ag",
    "493": "são",
    "171": "sa",
    "850": "preser",
    "860": "pon",
    "909": "inan",
    "881": "maior",
    "79": "Ã",
    "221": "endo",
    "179": "on",
    "471": "da.",
    "98": "es",
    "806": "inclu",
    "853": "gráficos",
    "568": "ítica",
    "295": "silei",
    "34": "H",
    "751": "componentes",
    "918": "acelera",
    "22": "ç",
    "431": "investiga",
    "167": "mi",
    "831": "Pro",
    "116": "com",
    "198": "pe",
    "126": "em",
    "482": "sem",
    "615": "proje",
    "438": "democra",
    "62": "y",
    "15": "g",
    "207": "inte",
    "804": "permitindo",
    "448": "fe",
    "926": "analytics",
    "968": "recursos",
    "648": "ven",
    "156": "for",
    "71": "ô",
    "357": "otimiza",
    "83": "%",
    "386": "sico",
    "423": "ram",
    "585": "dis",
    "817": "Me",
    "418": "cros",
    "637": "entra",
    "642": "QL",
    "659": "rele",
    "564": "inf",
    "90": "Y",
    "280": "cul",
    "281": "pu",
    "159": "comp",
    "225": "lica",
    "956": "diferentes",
    "162": "bi",
    "316": "Java",
    "690": "versa",
    "627": "ber",
    "378": "có",
    "664": "influ",
    "230": "ga",
    "600": "mol",
    "1": "<UNK>",
    "510": "ho",
    "296": "nce",
    "323": "por",
    "393": "experi",
    "395": "atrav",
    "819": "globa",
    "489": "bal",
    "148": "si",
    "85": "2",
    "127": "ci",
    "586": "isa",
    "911": "Ar",
    "326": "entre",
    "231": "tiva",
    "643": "cion",
    "598": "Rea",
    "500": "comporta",
    "433": "wor",
    "118": "re",
    "723": "ini",
    "223": "eb",
    "390": "cimento",
    "976": "rante",
    "401": "cra",
    "560": "rica",
    "17": "r",
    "332": "cultura",
    "176": "ções",
    "746": "ferra",
    "700": "oló",
    "635": "psicologia",
    "603": "até",
    "37": "A",
    "331": "áve",
    "87": "4",
    "772": "EN",
    "677": "cidade",
    "121": "ão",
    "610": "conec",
    "575": "visualiza",
    "660": ".js",
    "769": "prome",
    "160": "lo",
    "763": "analytic",
    "376": "vis",
    "480": "ização",
    "757": "nças",
    "754": "GP",
    "306": "ge",
    "859": "poder",
    "965": "persona",
    "932": "ud",
    "803": "fu",
    "266": "ML",
    "809": "influencia",
    "791": "ismos",
    "65": "B",
    "491": "sour",
    "810": "mobi",
    "529": "plo",
    "695": "apren",
    "959": "sona",
    "45": "ê",
    "735": "progra",
    "738": "SS",
    "183": "cu",
    "607": "cla",
    "236": "olog",
    "6": "a",
    "216": "am",
    "824": "problemas",
    "51": "k",
    "865": "doen",
    "609": "soci",
    "474": "ambi",
    "644": "Goog",
    "822": "nidade",
    "290": "iza",
    "342": "web",
    "481": "encial",
    "241": "das",
    "631": "alta",
    "716": "vem",
    "317": "nça",
    "382": "uni",
    "110": "ti",
    "521": "edades",
    "737": "ntes",
    "550": "ec",
    "745": "fundamental",
    "145": "tu",
    "985": "ru",
    "124": "la",
    "468": "id",
    "552": "código",
    "366": "ente",
    "940": "Apache",
    "847": "cient",
    "277": "cr",
    "383": "fo",
    "639": "gni",
    "945": "representa",
    "472": "js",
    "205": "ver",
    "995": "plas",
    "903": "micos",
    "368": "crip",
    "796": "projetos",
    "443": "psico",
    "103": "de",
    "707": "omia",
    "997": "tivas.",
    "542": "rança",
    "232": "tr",
    "565": "uti",
    "558": "vos",
    "747": "mazena",
    "920": "sintaxe",
    "533": "itos",
    "347": "ens",
    "708": "propriedades",
    "434": "base",
    "467": "desenvolve",
    "234": "fica",
    "528": "mer",
    "48": "V",
    "687": "propri",
    "315": "tec",
    "848": "medi",
    "44": "q",
    "238": "ist",
    "348": "enta",
    "693": "cres",
    "913": "il",
    "887": "IC",
    "872": "CSS",
    "245": "ling",
    "748": "resol",
    "417": "ora",
    "304": "ção.",
    "816": "teria",
    "670": "ir",
    "507": "econ",
    "9": "i",
    "321": "computa",
    "970": "cina",
    "844": "messa",
    "430": "pad",
    "942": "ener",
    "782": "ft",
    "309": "s,",
    "78": "Ç",
    "462": "dores",
    "163": "tes",
    "465": "les",
    "630": "dom",
    "200": "ter",
    "117": "pa",
    "729": "especial",
    "483": "segu",
    "477": "permite",
    "722": "ári",
    "741": "OG",
    "388": "bas",
    "961": "programação",
    "135": "cia",
    "863": "realidade",
    "783": "especialmente",
    "488": "ismo",
    "764": "performance.",
    "449": "th",
    "447": "ísica",
    "457": "brasileira",
    "935": "funciona",
    "455": "física",
    "367": "be",
    "657": "CI",
    "759": "tografia",
    "199": "se",
    "538": "Go",
    "178": "ua",
    "504": "sendo",
    "89": ":",
    "838": "promete",
    "114": "is",
    "229": "sistema",
    "239": "ologia",
    "286": "ribu",
    "154": "ões",
    "736": "basea",
    "807": "prote",
    "602": "ts",
    "579": "sta",
    "675": "thon",
    "930": "facili",
    "21": "D",
    "878": "Cha",
    "696": "lab",
    "889": "qualidade",
    "896": "bli",
    "353": "oti",
    "138": "ica",
    "228": "mente",
    "541": "ins",
    "143": "va",
    "509": "pos",
    "40": "I",
    "613": "is,",
    "667": "ças",
    "938": "lização",
    "425": "imp",
    "403": "neu",
    "144": "ri",
    "209": "ces",
    "459": "ha",
    "469": "empres",
    "814": "arch",
    "882": "JVM",
    "108": "te",
    "289": "templa",
    "74": "1",
    "671": "hi",
    "188": "tura",
    "821": "lia",
    "591": "ras",
    "832": "tive",
    "194": "envol",
    "697": "proble",
    "354": "gan",
    "293": "comple",
    "13": "c",
    "252": "como",
    "569": "matemática",
    "651": "gita",
    "494": "ct",
    "535": "tion",
    "255": "bu",
    "122": "li",
    "325": "miza",
    "374": "atra",
    "977": "cére",
    "82": "Í",
    "744": "ign",
    "987": "OLOG",
    "39": "U",
    "862": "não",
    "518": "sobre",
    "799": "ticos",
    "858": "Brasi",
    "142": "za",
    "370": "fia",
    "68": "O",
    "906": "mação",
    "247": "ava",
    "300": "gu",
    "905": "espec",
    "109": "ca",
    "898": "bo",
    "8": "C",
    "549": "mes",
    "622": "ervi",
    "947": "lin",
    "524": "pr",
    "441": "intera",
    "436": "distribuí",
    "998": "futuro",
    "760": "tual",
    "38": "Q",
    "414": "tecnologia",
    "193": "dos",
    "371": "au",
    "823": "tria",
    "355": "funda",
    "7": "e",
    "327": "esti",
    "136": "fere",
    "170": "un",
    "151": "mo",
    "502": "versi",
    "721": "gerencia",
    "836": "enti",
    "899": "cache",
    "646": "educa",
    "969": "armazenamento",
    "973": "automa",
    "846": "foi",
    "416": "VR",
    "944": "le.",
    "498": "ty",
    "732": "oferecem",
    "212": "fi",
    "344": "aplicações",
    "649": "reve",
    "291": "entes",
    "573": "ética",
    "387": "tecn",
    "617": "ace",
    "546": "tivos",
    "557": "real",
    "674": "ficos",
    "343": "popula",
    "768": "examina",
    "554": "API",
    "867": "usando",
    "192": "cos",
    "934": "cont",
    "161": "dade",
    "606": "niza",
    "10": "n",
    "132": "le",
    "215": "tin",
    "663": "cli",
    "470": "química",
    "595": "lingu",
    "672": "micros",
    "329": "cional",
    "562": "tividade",
    "828": "sões",
    "710": "linguística",
    "27": "L",
    "243": "tro",
    "883": "cis",
    "873": "algoritmos",
    "139": "qu",
    "246": "ís",
    "279": "gem",
    "424": "nal",
    "123": "men",
    "275": "fa",
    "338": "mica",
    "453": "aria",
    "927": "mundia",
    "369": "par",
    "189": "que",
    "274": "dades",
    "248": "desenvolvimento",
    "206": "gra",
    "705": "ífica",
    "733": "ytic",
    "971": "car",
    "47": "M",
    "299": "performa",
    "36": "P",
    "668": "bele",
    "466": "comun",
    "487": "melh",
    "530": "qua",
    "16": "o",
    "52": "v",
    "752": "ope",
    "363": "lti",
    "359": "sistemas",
    "411": "orta",
    "866": "neura",
    "429": "AR",
    "451": "Co",
    "276": "ine",
    "665": "ard",
    "264": "pres",
    "835": "conce",
    "924": "relevante",
    "861": "entraliza",
    "31": "j",
    "81": "Ê",
    "420": "do.",
    "701": "gens",
    "724": "melhora",
    "428": "mundo",
    "638": "ele",
    "923": "trabal",
    "394": "és",
    "397": "pre",
    "267": "lu",
    "551": "pol",
    "834": "mar",
    "503": "ória",
    "352": "lingua",
    "948": "compreensão",
    "30": "N",
    "23": "õ",
    "578": "revoluciona",
    "129": "to",
    "895": "faci",
    "790": "âne",
    "464": "mate",
    "894": "avança",
    "955": "múltip",
    "186": "al",
    "119": "ro",
    "545": "mú",
    "561": "compre",
    "210": "us",
    "612": "experiência",
    "645": "RA",
    "988": "enas",
    "515": "ín",
    "986": "turo",
    "891": "sua",
    "784": "métrica",
    "125": "na",
    "146": "pro",
    "869": "web.",
    "577": "ló",
    "308": "huma",
    "628": "tores",
    "556": "mai",
    "55": "h",
    "486": "gine",
    "182": "ex",
    "219": "lidade",
    "499": "Scrip",
    "244": "nç",
    "778": "multi",
    "946": "parti",
    "949": "conheci",
    "849": "algorit",
    "788": "transforma",
    "350": "ck",
    "792": "gicos",
    "820": "global",
    "599": "nu",
    "725": "conecta",
    "893": "tifi",
    "91": "Ú",
    "522": "ble",
    "168": "vol",
    "567": "tex",
    "120": "ce",
    "650": "tas",
    "107": "ia",
    "196": "desenvol",
    "28": "b",
    "666": "Open",
    "702": "vação",
    "750": "ream",
    "517": "maz",
    "921": "dados.",
    "18": "m",
    "42": "E",
    "786": "siona",
    "508": "comb",
    "102": "er",
    "537": "códi",
    "106": "da",
    "399": "conhe",
    "683": "revolucion",
    "890": "organismos",
    "93": "0",
    "197": "ap",
    "656": "renderização",
    "852": "áveis.",
    "379": "##",
    "2": "<BOS>",
    "709": "GUI",
    "24": ".",
    "265": "contin",
    "580": "computação",
    "766": "escala",
    "250": "fun",
    "544": "logia",
    "829": "mb",
    "776": "releva",
    "789": "quan",
    "140": "des",
    "400": "pri",
    "793": "ES",
    "485": "ção,",
    "984": "La",
    "972": "dio",
    "131": "para",
    "802": "algor",
    "584": "auto",
    "888": "tência",
    "57": "ó",
    "492": "servi",
    "957": "te.",
    "576": "framework",
    "682": "digita",
    "422": "o.",
    "842": "opera",
    "130": "ol",
    "908": "depen",
    "925": "repres",
    "952": "ális",
    "381": "t.",
    "907": "compila",
    "187": "ência",
    "539": "formações",
    "164": "as",
    "953": "ew",
    "513": "mework",
    "19": "d",
    "298": "su",
    "749": "revolucionou",
    "181": "ncia",
    "999": "co.",
    "29": "R",
    "739": "fis",
    "262": "aplica",
    "547": "nos",
    "180": "ona",
    "340": "ess",
    "389": "encia",
    "713": "De",
    "113": "ta",
    "620": "ino",
    "261": "tiv",
    "153": "di",
    "282": "pla",
    "548": "as.",
    "815": "sus",
    "334": "nte",
    "597": "gica",
    "497": "simpli",
    "257": "pen",
    "728": "grá",
    "712": "economia",
    "305": "performance",
    "362": "espe",
    "313": "té",
    "404": "mode",
    "566": "data",
    "641": "ob",
    "718": "estabele",
    "588": "ran",
    "692": "criação",
    "800": "ferramentas",
    "53": "á",
    "61": "W",
    "993": "contra",
    "904": "taxe",
    "141": "oferece",
    "625": "vendo",
    "283": "lh",
    "413": "complex",
    "845": "ub",
    "967": "modela",
    "619": "ecossistema",
    "974": "oteca",
    "86": "Ó",
    "990": "contex",
    "669": "ração",
    "35": "u",
    "762": "contro",
    "608": "múlti",
    "76": "8",
    "543": "dera",
    "64": "ú",
    "476": "sob",
    "322": "distribu",
    "581": "das.",
    "3": "<EOS>",
    "706": "dire",
    "456": "íve",
    "634": "teor",
    "303": "brasilei",
    "715": "low",
    "294": "estuda",
    "877": "gência",
    "372": "che",
    "919": "pú",
    "5": "t",
    "775": "inteli",
    "20": ",",
    "270": "cria",
    "361": "cendo",
    "311": "istribu",
    "445": "fundamenta",
    "506": "social",
    "618": "ger",
    "572": "gor",
    "964": "ker",
    "240": "ou",
    "505": "inc",
    "534": "tic",
    "373": "rá",
    "452": "nica",
    "571": "neuro",
    "730": "natura",
    "731": "sin",
    "871": "big",
    "137": "ofere",
    "214": "cial",
    "59": "-",
    "519": "comunica",
    "446": "processa",
    "50": "K",
    "833": "aprendi",
    "593": "democratiza",
    "787": "HT",
    "943": "os,",
    "237": "um",
    "928": "ote",
    "213": "uma",
    "227": "po",
    "177": "an",
    "553": "UI",
    "621": "ture",
    "72": "/",
    "654": "desc",
    "704": "exam",
    "330": "revolu",
    "104": "in",
    "409": "dia",
    "495": "bio",
    "805": "cos.",
    "111": "ma",
    "254": "ns",
    "226": "liza",
    "520": "popular",
    "69": "\"",
    "324": "templates",
    "220": "du",
    "432": "ab",
    "473": "visua",
    "211": "ni",
    "673": "ban",
    "954": "duz",
    "901": "dor",
    "287": "continua",
    "147": "ndo",
    "380": "esta",
    "851": "ting",
    "770": "VI"
  },
  "merges": [
    [
      "e",
      "s"
    ],
    [
      "r",
      "a"
    ],
    [
      "e",
      "n"
    ],
    [
      "c",
      "o"
    ],
    [
      "e",
      "r"
    ],
    [
      "d",
      "e"
    ],
    [
      "i",
      "n"
    ],
    [
      "d",
      "o"
    ],
    [
      "d",
      "a"
    ],
    [
      "i",
      "a"
    ],
    [
      "t",
      "e"
    ],
    [
      "c",
      "a"
    ],
    [
      "t",
      "i"
    ],
    [
      "m",
      "a"
    ],
    [
      "o",
      "s"
    ],
    [
      "t",
      "a"
    ],
    [
      "i",
      "s"
    ],
    [
      "o",
      "r"
    ],
    [
      "co",
      "m"
    ],
    [
      "p",
      "a"
    ],
    [
      "r",
      "e"
    ],
    [
      "r",
      "o"
    ],
    [
      "c",
      "e"
    ],
    [
      "ã",
      "o"
    ],
    [
      "l",
      "i"
    ],
    [
      "m",
      "en"
    ],
    [
      "l",
      "a"
    ],
    [
      "n",
      "a"
    ],
    [
      "e",
      "m"
    ],
    [
      "c",
      "i"
    ],
    [
      "ç",
      "ão"
    ],
    [
      "t",
      "o"
    ],
    [
      "o",
      "l"
    ],
    [
      "pa",
      "ra"
    ],
    [
      "l",
      "e"
    ],
    [
      "f",
      "er"
    ],
    [
      "co",
      "n"
    ],
    [
      "c",
      "ia"
    ],
    [
      "fer",
      "e"
    ],
    [
      "o",
      "fere"
    ],
    [
      "i",
      "ca"
    ],
    [
      "q",
      "u"
    ],
    [
      "d",
      "es"
    ],
    [
      "ofere",
      "ce"
    ],
    [
      "z",
      "a"
    ],
    [
      "v",
      "a"
    ],
    [
      "r",
      "i"
    ],
    [
      "t",
      "u"
    ],
    [
      "p",
      "ro"
    ],
    [
      "n",
      "do"
    ],
    [
      "s",
      "i"
    ],
    [
      "s",
      "."
    ],
    [
      "v",
      "i"
    ],
    [
      "m",
      "o"
    ],
    [
      "t",
      "ra"
    ],
    [
      "d",
      "i"
    ],
    [
      "õ",
      "es"
    ],
    [
      "v",
      "e"
    ],
    [
      "f",
      "or"
    ],
    [
      "men",
      "to"
    ],
    [
      "s",
      "o"
    ],
    [
      "com",
      "p"
    ],
    [
      "l",
      "o"
    ],
    [
      "da",
      "de"
    ],
    [
      "b",
      "i"
    ],
    [
      "t",
      "es"
    ],
    [
      "a",
      "s"
    ],
    [
      "a",
      "r"
    ],
    [
      "p",
      "er"
    ],
    [
      "m",
      "i"
    ],
    [
      "v",
      "ol"
    ],
    [
      "r",
      "es"
    ],
    [
      "u",
      "n"
    ],
    [
      "s",
      "a"
    ],
    [
      "m",
      "p"
    ],
    [
      "for",
      "ma"
    ],
    [
      "ti",
      "ca"
    ],
    [
      "in",
      "g"
    ],
    [
      "ç",
      "ões"
    ],
    [
      "a",
      "n"
    ],
    [
      "u",
      "a"
    ],
    [
      "o",
      "n"
    ],
    [
      "o",
      "na"
    ],
    [
      "n",
      "cia"
    ],
    [
      "e",
      "x"
    ],
    [
      "c",
      "u"
    ],
    [
      "r",
      "ia"
    ],
    [
      "m",
      "e"
    ],
    [
      "a",
      "l"
    ],
    [
      "ê",
      "ncia"
    ],
    [
      "tu",
      "ra"
    ],
    [
      "qu",
      "e"
    ],
    [
      "ci",
      "ona"
    ],
    [
      "o",
      "g"
    ],
    [
      "co",
      "s"
    ],
    [
      "do",
      "s"
    ],
    [
      "en",
      "vol"
    ],
    [
      "n",
      "o"
    ],
    [
      "des",
      "envol"
    ],
    [
      "a",
      "p"
    ],
    [
      "p",
      "e"
    ],
    [
      "s",
      "e"
    ],
    [
      "t",
      "er"
    ],
    [
      "t",
      "os"
    ],
    [
      "d",
      "er"
    ],
    [
      "s",
      "is"
    ],
    [
      "n",
      "e"
    ],
    [
      "v",
      "er"
    ],
    [
      "g",
      "ra"
    ],
    [
      "in",
      "te"
    ],
    [
      "c",
      "h"
    ],
    [
      "c",
      "es"
    ],
    [
      "u",
      "s"
    ],
    [
      "n",
      "i"
    ],
    [
      "f",
      "i"
    ],
    [
      "u",
      "ma"
    ],
    [
      "cia",
      "l"
    ],
    [
      "t",
      "in"
    ],
    [
      "a",
      "m"
    ],
    [
      "men",
      "ta"
    ],
    [
      "en",
      "t"
    ],
    [
      "li",
      "dade"
    ],
    [
      "d",
      "u"
    ],
    [
      "en",
      "do"
    ],
    [
      "te",
      "ma"
    ],
    [
      "e",
      "b"
    ],
    [
      "m",
      "u"
    ],
    [
      "li",
      "ca"
    ],
    [
      "li",
      "za"
    ],
    [
      "p",
      "o"
    ],
    [
      "men",
      "te"
    ],
    [
      "sis",
      "tema"
    ],
    [
      "g",
      "a"
    ],
    [
      "ti",
      "va"
    ],
    [
      "t",
      "r"
    ],
    [
      "te",
      "mp"
    ],
    [
      "f",
      "ica"
    ],
    [
      "desenvol",
      "vi"
    ],
    [
      "ol",
      "og"
    ],
    [
      "u",
      "m"
    ],
    [
      "is",
      "t"
    ],
    [
      "olog",
      "ia"
    ],
    [
      "o",
      "u"
    ],
    [
      "da",
      "s"
    ],
    [
      "is",
      "."
    ],
    [
      "t",
      "ro"
    ],
    [
      "n",
      "ç"
    ],
    [
      "l",
      "ing"
    ],
    [
      "í",
      "s"
    ],
    [
      "a",
      "va"
    ],
    [
      "desenvolvi",
      "mento"
    ],
    [
      "in",
      "a"
    ],
    [
      "f",
      "un"
    ],
    [
      "os",
      "."
    ],
    [
      "com",
      "o"
    ],
    [
      "l",
      "."
    ],
    [
      "n",
      "s"
    ],
    [
      "b",
      "u"
    ],
    [
      "vol",
      "u"
    ],
    [
      "p",
      "en"
    ],
    [
      "g",
      "i"
    ],
    [
      "b",
      "ra"
    ],
    [
      "t",
      "en"
    ],
    [
      "ti",
      "v"
    ],
    [
      "ap",
      "lica"
    ],
    [
      "s",
      "er"
    ],
    [
      "p",
      "res"
    ],
    [
      "con",
      "tin"
    ],
    [
      "M",
      "L"
    ],
    [
      "l",
      "u"
    ],
    [
      "bi",
      "lidade"
    ],
    [
      "I",
      "A"
    ],
    [
      "c",
      "ria"
    ],
    [
      "g",
      "en"
    ],
    [
      "t",
      "or"
    ],
    [
      "p",
      "i"
    ],
    [
      "da",
      "des"
    ],
    [
      "f",
      "a"
    ],
    [
      "in",
      "e"
    ],
    [
      "c",
      "r"
    ],
    [
      "c",
      "ri"
    ],
    [
      "g",
      "em"
    ],
    [
      "cu",
      "l"
    ],
    [
      "p",
      "u"
    ],
    [
      "p",
      "la"
    ],
    [
      "l",
      "h"
    ],
    [
      "u",
      "sa"
    ],
    [
      "le",
      "i"
    ],
    [
      "ri",
      "bu"
    ],
    [
      "contin",
      "ua"
    ],
    [
      "es",
      "tu"
    ],
    [
      "temp",
      "la"
    ],
    [
      "i",
      "za"
    ],
    [
      "en",
      "tes"
    ],
    [
      "g",
      "o"
    ],
    [
      "comp",
      "le"
    ],
    [
      "estu",
      "da"
    ],
    [
      "si",
      "lei"
    ],
    [
      "n",
      "ce"
    ],
    [
      "comp",
      "u"
    ],
    [
      "s",
      "u"
    ],
    [
      "per",
      "forma"
    ],
    [
      "g",
      "u"
    ],
    [
      "m",
      "á"
    ],
    [
      "m",
      "os"
    ],
    [
      "bra",
      "silei"
    ],
    [
      "ção",
      "."
    ],
    [
      "performa",
      "nce"
    ],
    [
      "g",
      "e"
    ],
    [
      "pro",
      "ces"
    ],
    [
      "h",
      "uma"
    ],
    [
      "s",
      ","
    ],
    [
      "r",
      "en"
    ],
    [
      "ist",
      "ribu"
    ],
    [
      "R",
      "e"
    ],
    [
      "t",
      "é"
    ],
    [
      "pu",
      "la"
    ],
    [
      "te",
      "c"
    ],
    [
      "J",
      "ava"
    ],
    [
      "nç",
      "a"
    ],
    [
      "h",
      "e"
    ],
    [
      "da",
      "dos"
    ],
    [
      "tra",
      "ns"
    ],
    [
      "compu",
      "ta"
    ],
    [
      "d",
      "istribu"
    ],
    [
      "p",
      "or"
    ],
    [
      "templa",
      "tes"
    ],
    [
      "mi",
      "za"
    ],
    [
      "ent",
      "re"
    ],
    [
      "es",
      "ti"
    ],
    [
      "i",
      "t"
    ],
    [
      "ciona",
      "l"
    ],
    [
      "re",
      "volu"
    ],
    [
      "á",
      "ve"
    ],
    [
      "cul",
      "tura"
    ],
    [
      "in",
      "do"
    ],
    [
      "n",
      "te"
    ],
    [
      "ti",
      "za"
    ],
    [
      "mo",
      "der"
    ],
    [
      "per",
      "i"
    ],
    [
      "m",
      "ica"
    ],
    [
      "u",
      "r"
    ],
    [
      "es",
      "s"
    ],
    [
      "per",
      "mi"
    ],
    [
      "w",
      "eb"
    ],
    [
      "po",
      "pula"
    ],
    [
      "aplica",
      "ções"
    ],
    [
      "ci",
      "ência"
    ],
    [
      "inte",
      "gra"
    ],
    [
      "en",
      "s"
    ],
    [
      "en",
      "ta"
    ],
    [
      "l",
      "os"
    ],
    [
      "c",
      "k"
    ],
    [
      "b",
      "a"
    ],
    [
      "ling",
      "ua"
    ],
    [
      "o",
      "ti"
    ],
    [
      "g",
      "an"
    ],
    [
      "fun",
      "da"
    ],
    [
      "tr",
      "u"
    ],
    [
      "oti",
      "miza"
    ],
    [
      "f",
      "ra"
    ],
    [
      "sistema",
      "s"
    ],
    [
      "de",
      "mo"
    ],
    [
      "c",
      "endo"
    ],
    [
      "es",
      "pe"
    ],
    [
      "l",
      "ti"
    ],
    [
      "re",
      "a"
    ],
    [
      "in",
      "ter"
    ],
    [
      "en",
      "te"
    ],
    [
      "b",
      "e"
    ],
    [
      "cri",
      "p"
    ],
    [
      "pa",
      "r"
    ],
    [
      "f",
      "ia"
    ],
    [
      "a",
      "u"
    ],
    [
      "ch",
      "e"
    ],
    [
      "r",
      "á"
    ],
    [
      "a",
      "tra"
    ],
    [
      "g",
      "ia"
    ],
    [
      "v",
      "is"
    ],
    [
      "m",
      "é"
    ],
    [
      "c",
      "ó"
    ],
    [
      "#",
      "#"
    ],
    [
      "es",
      "ta"
    ],
    [
      "t",
      "."
    ],
    [
      "un",
      "i"
    ],
    [
      "f",
      "o"
    ],
    [
      "A",
      "s"
    ],
    [
      "do",
      "s."
    ],
    [
      "si",
      "co"
    ],
    [
      "tec",
      "n"
    ],
    [
      "b",
      "as"
    ],
    [
      "en",
      "cia"
    ],
    [
      "ci",
      "mento"
    ],
    [
      "a",
      "o"
    ],
    [
      "qu",
      "í"
    ],
    [
      "ex",
      "peri"
    ],
    [
      "é",
      "s"
    ],
    [
      "atra",
      "v"
    ],
    [
      "W",
      "eb"
    ],
    [
      "p",
      "re"
    ],
    [
      "atrav",
      "és"
    ],
    [
      "con",
      "he"
    ],
    [
      "p",
      "ri"
    ],
    [
      "c",
      "ra"
    ],
    [
      "má",
      "tica"
    ],
    [
      "ne",
      "u"
    ],
    [
      "mo",
      "de"
    ],
    [
      "ís",
      "tica"
    ],
    [
      "tru",
      "tura"
    ],
    [
      "es",
      "trutura"
    ],
    [
      "in",
      "v"
    ],
    [
      "d",
      "ia"
    ],
    [
      "lingua",
      "gem"
    ],
    [
      "or",
      "ta"
    ],
    [
      "si",
      "mp"
    ],
    [
      "comple",
      "x"
    ],
    [
      "tecn",
      "ologia"
    ],
    [
      "inv",
      "esti"
    ],
    [
      "V",
      "R"
    ],
    [
      "o",
      "ra"
    ],
    [
      "cr",
      "os"
    ],
    [
      "ch",
      "a"
    ],
    [
      "do",
      "."
    ],
    [
      "pro",
      "du"
    ],
    [
      "o",
      "."
    ],
    [
      "ra",
      "m"
    ],
    [
      "na",
      "l"
    ],
    [
      "i",
      "mp"
    ],
    [
      "s",
      "os"
    ],
    [
      "s",
      "t"
    ],
    [
      "mu",
      "ndo"
    ],
    [
      "A",
      "R"
    ],
    [
      "pa",
      "d"
    ],
    [
      "investi",
      "ga"
    ],
    [
      "a",
      "b"
    ],
    [
      "w",
      "or"
    ],
    [
      "bas",
      "e"
    ],
    [
      "g",
      "lo"
    ],
    [
      "distribu",
      "í"
    ],
    [
      "j",
      "e"
    ],
    [
      "demo",
      "cra"
    ],
    [
      "ma",
      "s"
    ],
    [
      "wor",
      "k"
    ],
    [
      "inte",
      "ra"
    ],
    [
      "ofere",
      "cendo"
    ],
    [
      "p",
      "sico"
    ],
    [
      "con",
      "s"
    ],
    [
      "funda",
      "menta"
    ],
    [
      "proces",
      "sa"
    ],
    [
      "ís",
      "ica"
    ],
    [
      "f",
      "e"
    ],
    [
      "t",
      "h"
    ],
    [
      "men",
      "tos"
    ],
    [
      "C",
      "o"
    ],
    [
      "n",
      "ica"
    ],
    [
      "ar",
      "ia"
    ],
    [
      "i",
      "ma"
    ],
    [
      "f",
      "ísica"
    ],
    [
      "í",
      "ve"
    ],
    [
      "brasilei",
      "ra"
    ],
    [
      "i",
      "g"
    ],
    [
      "h",
      "a"
    ],
    [
      "or",
      "gan"
    ],
    [
      "or",
      "es"
    ],
    [
      "do",
      "res"
    ],
    [
      "A",
      "P"
    ],
    [
      "ma",
      "te"
    ],
    [
      "l",
      "es"
    ],
    [
      "com",
      "un"
    ],
    [
      "desenvol",
      "ve"
    ],
    [
      "i",
      "d"
    ],
    [
      "em",
      "pres"
    ],
    [
      "quí",
      "mica"
    ],
    [
      "da",
      "."
    ],
    [
      "j",
      "s"
    ],
    [
      "vis",
      "ua"
    ],
    [
      "am",
      "bi"
    ],
    [
      "P",
      "y"
    ],
    [
      "so",
      "b"
    ],
    [
      "permi",
      "te"
    ],
    [
      "es",
      "t"
    ],
    [
      "a",
      "nal"
    ],
    [
      "iza",
      "ção"
    ],
    [
      "en",
      "cial"
    ],
    [
      "s",
      "em"
    ],
    [
      "se",
      "gu"
    ],
    [
      "ma",
      "is"
    ],
    [
      "ção",
      ","
    ],
    [
      "g",
      "ine"
    ],
    [
      "me",
      "lh"
    ],
    [
      "is",
      "mo"
    ],
    [
      "b",
      "al"
    ],
    [
      "cu",
      "la"
    ],
    [
      "so",
      "ur"
    ],
    [
      "ser",
      "vi"
    ],
    [
      "s",
      "ão"
    ],
    [
      "c",
      "t"
    ],
    [
      "bi",
      "o"
    ],
    [
      "ti",
      "vi"
    ],
    [
      "simp",
      "li"
    ],
    [
      "t",
      "y"
    ],
    [
      "S",
      "crip"
    ],
    [
      "comp",
      "orta"
    ],
    [
      "ta",
      "forma"
    ],
    [
      "ver",
      "si"
    ],
    [
      "ó",
      "ria"
    ],
    [
      "s",
      "endo"
    ],
    [
      "in",
      "c"
    ],
    [
      "so",
      "cial"
    ],
    [
      "e",
      "con"
    ],
    [
      "com",
      "b"
    ],
    [
      "p",
      "os"
    ],
    [
      "h",
      "o"
    ],
    [
      "pla",
      "taforma"
    ],
    [
      "m",
      "ia"
    ],
    [
      "me",
      "work"
    ],
    [
      "ta",
      "ndo"
    ],
    [
      "í",
      "n"
    ],
    [
      "sour",
      "ce"
    ],
    [
      "ma",
      "z"
    ],
    [
      "sob",
      "re"
    ],
    [
      "comun",
      "ica"
    ],
    [
      "popula",
      "r"
    ],
    [
      "e",
      "dades"
    ],
    [
      "b",
      "le"
    ],
    [
      "u",
      "l"
    ],
    [
      "p",
      "r"
    ],
    [
      "cia",
      "is"
    ],
    [
      "qu",
      "i"
    ],
    [
      "ess",
      "encial"
    ],
    [
      "m",
      "er"
    ],
    [
      "p",
      "lo"
    ],
    [
      "qu",
      "a"
    ],
    [
      "b",
      "us"
    ],
    [
      "o",
      "pen"
    ],
    [
      "i",
      "tos"
    ],
    [
      "ti",
      "c"
    ],
    [
      "ti",
      "on"
    ],
    [
      "re",
      "la"
    ],
    [
      "có",
      "di"
    ],
    [
      "G",
      "o"
    ],
    [
      "forma",
      "ções"
    ],
    [
      "des",
      "de"
    ],
    [
      "in",
      "s"
    ],
    [
      "ra",
      "nça"
    ],
    [
      "de",
      "ra"
    ],
    [
      "lo",
      "gia"
    ],
    [
      "m",
      "ú"
    ],
    [
      "tiv",
      "os"
    ],
    [
      "n",
      "os"
    ],
    [
      "a",
      "s."
    ],
    [
      "m",
      "es"
    ],
    [
      "e",
      "c"
    ],
    [
      "p",
      "ol"
    ],
    [
      "códi",
      "go"
    ],
    [
      "U",
      "I"
    ],
    [
      "AP",
      "I"
    ],
    [
      "x",
      "e"
    ],
    [
      "ma",
      "i"
    ],
    [
      "re",
      "al"
    ],
    [
      "v",
      "os"
    ],
    [
      "T",
      "E"
    ],
    [
      "r",
      "ica"
    ],
    [
      "comp",
      "re"
    ],
    [
      "tivi",
      "dade"
    ],
    [
      "empres",
      "aria"
    ],
    [
      "in",
      "f"
    ],
    [
      "u",
      "ti"
    ],
    [
      "da",
      "ta"
    ],
    [
      "te",
      "x"
    ],
    [
      "í",
      "tica"
    ],
    [
      "mate",
      "mática"
    ],
    [
      "pad",
      "r"
    ],
    [
      "neu",
      "ro"
    ],
    [
      "g",
      "or"
    ],
    [
      "é",
      "tica"
    ],
    [
      "huma",
      "na"
    ],
    [
      "visua",
      "liza"
    ],
    [
      "fra",
      "mework"
    ],
    [
      "l",
      "ó"
    ],
    [
      "revolu",
      "ciona"
    ],
    [
      "s",
      "ta"
    ],
    [
      "computa",
      "ção"
    ],
    [
      "da",
      "s."
    ],
    [
      "comporta",
      "mento"
    ],
    [
      "e",
      "cos"
    ],
    [
      "au",
      "to"
    ],
    [
      "d",
      "is"
    ],
    [
      "is",
      "a"
    ],
    [
      "tiva",
      "s"
    ],
    [
      "ra",
      "n"
    ],
    [
      "conhe",
      "cimento"
    ],
    [
      "ia",
      "s"
    ],
    [
      "ra",
      "s"
    ],
    [
      "p",
      "es"
    ],
    [
      "democra",
      "tiza"
    ],
    [
      "simpli",
      "fica"
    ],
    [
      "ling",
      "u"
    ],
    [
      "ren",
      "der"
    ],
    [
      "g",
      "ica"
    ],
    [
      "Re",
      "a"
    ],
    [
      "n",
      "u"
    ],
    [
      "m",
      "ol"
    ],
    [
      "des",
      "a"
    ],
    [
      "t",
      "s"
    ],
    [
      "a",
      "té"
    ],
    [
      "tin",
      "do"
    ],
    [
      "p",
      "s"
    ],
    [
      "ni",
      "za"
    ],
    [
      "c",
      "la"
    ],
    [
      "mú",
      "lti"
    ],
    [
      "so",
      "ci"
    ],
    [
      "con",
      "ec"
    ],
    [
      "du",
      "ca"
    ],
    [
      "experi",
      "ência"
    ],
    [
      "is",
      ","
    ],
    [
      "á",
      "l"
    ],
    [
      "pro",
      "je"
    ],
    [
      "mu",
      "da"
    ],
    [
      "a",
      "ce"
    ],
    [
      "g",
      "er"
    ],
    [
      "ecos",
      "sistema"
    ],
    [
      "in",
      "o"
    ],
    [
      "tu",
      "re"
    ],
    [
      "er",
      "vi"
    ],
    [
      "a",
      "ces"
    ],
    [
      "e",
      "ra"
    ],
    [
      "v",
      "endo"
    ],
    [
      "processa",
      "mento"
    ],
    [
      "b",
      "er"
    ],
    [
      "tor",
      "es"
    ],
    [
      "ç",
      "os"
    ],
    [
      "do",
      "m"
    ],
    [
      "al",
      "ta"
    ],
    [
      "Java",
      "Scrip"
    ],
    [
      "M",
      "a"
    ],
    [
      "te",
      "or"
    ],
    [
      "psico",
      "logia"
    ],
    [
      "di",
      "versi"
    ],
    [
      "en",
      "tra"
    ],
    [
      "e",
      "le"
    ],
    [
      "g",
      "ni"
    ],
    [
      "to",
      "gra"
    ],
    [
      "o",
      "b"
    ],
    [
      "Q",
      "L"
    ],
    [
      "ci",
      "on"
    ],
    [
      "Go",
      "og"
    ],
    [
      "R",
      "A"
    ],
    [
      "e",
      "duca"
    ],
    [
      "Goog",
      "le"
    ],
    [
      "v",
      "en"
    ],
    [
      "re",
      "ve"
    ],
    [
      "ta",
      "s"
    ],
    [
      "gi",
      "ta"
    ],
    [
      "ú",
      "de"
    ],
    [
      "â",
      "ncia"
    ],
    [
      "des",
      "c"
    ],
    [
      "comb",
      "ina"
    ],
    [
      "render",
      "ização"
    ],
    [
      "C",
      "I"
    ],
    [
      "tr",
      "ica"
    ],
    [
      "re",
      "le"
    ],
    [
      ".",
      "js"
    ],
    [
      "en",
      "gine"
    ],
    [
      "diversi",
      "dade"
    ],
    [
      "c",
      "li"
    ],
    [
      "inf",
      "lu"
    ],
    [
      "ar",
      "d"
    ],
    [
      "O",
      "pen"
    ],
    [
      "ç",
      "as"
    ],
    [
      "be",
      "le"
    ],
    [
      "ra",
      "ção"
    ],
    [
      "i",
      "r"
    ],
    [
      "h",
      "i"
    ],
    [
      "mi",
      "cros"
    ],
    [
      "b",
      "an"
    ],
    [
      "fi",
      "cos"
    ],
    [
      "th",
      "on"
    ],
    [
      "segu",
      "rança"
    ],
    [
      "ci",
      "dade"
    ],
    [
      "Py",
      "thon"
    ],
    [
      "m",
      "em"
    ],
    [
      "w",
      "a"
    ],
    [
      "es",
      "ca"
    ],
    [
      "di",
      "gita"
    ],
    [
      "revolu",
      "cion"
    ],
    [
      "in",
      "d"
    ],
    [
      "cu",
      "r"
    ],
    [
      "en",
      "der"
    ],
    [
      "pro",
      "pri"
    ],
    [
      "tiv",
      "o"
    ],
    [
      "e",
      "volu"
    ],
    [
      "ver",
      "sa"
    ],
    [
      "di",
      "fer"
    ],
    [
      "cria",
      "ção"
    ],
    [
      "c",
      "res"
    ],
    [
      "g",
      "ing"
    ],
    [
      "ap",
      "ren"
    ],
    [
      "la",
      "b"
    ],
    [
      "pro",
      "ble"
    ],
    [
      "l",
      ","
    ],
    [
      "z",
      "ou"
    ],
    [
      "ol",
      "ó"
    ],
    [
      "gen",
      "s"
    ],
    [
      "va",
      "ção"
    ],
    [
      "sa",
      "úde"
    ],
    [
      "ex",
      "am"
    ],
    [
      "í",
      "fica"
    ],
    [
      "di",
      "re"
    ],
    [
      "o",
      "mia"
    ],
    [
      "propri",
      "edades"
    ],
    [
      "G",
      "UI"
    ],
    [
      "lingu",
      "ística"
    ],
    [
      "moder",
      "na"
    ],
    [
      "econ",
      "omia"
    ],
    [
      "D",
      "e"
    ],
    [
      "comunica",
      "ção"
    ],
    [
      "lo",
      "w"
    ],
    [
      "v",
      "em"
    ],
    [
      "ML",
      "."
    ],
    [
      "esta",
      "bele"
    ],
    [
      "en",
      "a"
    ],
    [
      "O",
      "L"
    ],
    [
      "ger",
      "encia"
    ],
    [
      "á",
      "ri"
    ],
    [
      "in",
      "i"
    ],
    [
      "melh",
      "ora"
    ],
    [
      "conec",
      "ta"
    ],
    [
      "comp",
      "on"
    ],
    [
      "es",
      "pa"
    ],
    [
      "g",
      "rá"
    ],
    [
      "espe",
      "cial"
    ],
    [
      "na",
      "tura"
    ],
    [
      "s",
      "in"
    ],
    [
      "oferece",
      "m"
    ],
    [
      "y",
      "tic"
    ],
    [
      "S",
      "QL"
    ],
    [
      "pro",
      "gra"
    ],
    [
      "base",
      "a"
    ],
    [
      "n",
      "tes"
    ],
    [
      "S",
      "S"
    ],
    [
      "f",
      "is"
    ],
    [
      "á",
      "s"
    ],
    [
      "O",
      "G"
    ],
    [
      "so",
      "ciais"
    ],
    [
      "reve",
      "la"
    ],
    [
      "ig",
      "n"
    ],
    [
      "fundamenta",
      "l"
    ],
    [
      "fer",
      "ra"
    ],
    [
      "maz",
      "ena"
    ],
    [
      "res",
      "ol"
    ],
    [
      "revolucion",
      "ou"
    ],
    [
      "re",
      "am"
    ],
    [
      "compon",
      "entes"
    ],
    [
      "o",
      "pe"
    ],
    [
      "V",
      "M"
    ],
    [
      "G",
      "P"
    ],
    [
      "source",
      "."
    ],
    [
      "o",
      "t"
    ],
    [
      "nç",
      "as"
    ],
    [
      "bilidade",
      "."
    ],
    [
      "togra",
      "fia"
    ],
    [
      "tu",
      "al"
    ],
    [
      "A",
      "n"
    ],
    [
      "con",
      "tro"
    ],
    [
      "anal",
      "ytic"
    ],
    [
      "performance",
      "."
    ],
    [
      "JavaScrip",
      "t"
    ],
    [
      "esca",
      "la"
    ],
    [
      "lo",
      "n"
    ],
    [
      "exam",
      "ina"
    ],
    [
      "pro",
      "me"
    ],
    [
      "V",
      "I"
    ],
    [
      "brasilei",
      "ro"
    ],
    [
      "E",
      "N"
    ],
    [
      "m",
      "un"
    ],
    [
      "li",
      "dera"
    ],
    [
      "inte",
      "li"
    ],
    [
      "rele",
      "va"
    ],
    [
      "le",
      "ar"
    ],
    [
      "mu",
      "lti"
    ],
    [
      "ferra",
      "menta"
    ],
    [
      "mode",
      "los"
    ],
    [
      "ar",
      "mazena"
    ],
    [
      "f",
      "t"
    ],
    [
      "especial",
      "mente"
    ],
    [
      "mé",
      "trica"
    ],
    [
      "b",
      "ar"
    ],
    [
      "si",
      "ona"
    ],
    [
      "H",
      "T"
    ],
    [
      "trans",
      "forma"
    ],
    [
      "qu",
      "an"
    ],
    [
      "â",
      "ne"
    ],
    [
      "is",
      "mos"
    ],
    [
      "gi",
      "cos"
    ],
    [
      "E",
      "S"
    ],
    [
      "tiva",
      "."
    ],
    [
      "co",
      "lab"
    ],
    [
      "proje",
      "tos"
    ],
    [
      "o",
      ","
    ],
    [
      "bi",
      "ologia"
    ],
    [
      "ti",
      "cos"
    ],
    [
      "ferramenta",
      "s"
    ],
    [
      "pol",
      "ítica"
    ],
    [
      "al",
      "gor"
    ],
    [
      "f",
      "u"
    ],
    [
      "permi",
      "tindo"
    ],
    [
      "co",
      "s."
    ],
    [
      "inc",
      "lu"
    ],
    [
      "pro",
      "te"
    ],
    [
      "pro",
      "mo"
    ],
    [
      "influ",
      "encia"
    ],
    [
      "mo",
      "bi"
    ],
    [
      "A",
      "p"
    ],
    [
      "ma",
      "n"
    ],
    [
      "ambi",
      "enta"
    ],
    [
      "ar",
      "ch"
    ],
    [
      "s",
      "us"
    ],
    [
      "ter",
      "ia"
    ],
    [
      "M",
      "e"
    ],
    [
      "pa",
      "t"
    ],
    [
      "glo",
      "ba"
    ],
    [
      "glo",
      "bal"
    ],
    [
      "l",
      "ia"
    ],
    [
      "ni",
      "dade"
    ],
    [
      "t",
      "ria"
    ],
    [
      "proble",
      "mas"
    ],
    [
      "áve",
      "is"
    ],
    [
      "fo",
      "ca"
    ],
    [
      "de",
      "m"
    ],
    [
      "s",
      "ões"
    ],
    [
      "m",
      "b"
    ],
    [
      "te",
      "ra"
    ],
    [
      "P",
      "ro"
    ],
    [
      "ti",
      "ve"
    ],
    [
      "apren",
      "di"
    ],
    [
      "ma",
      "r"
    ],
    [
      "con",
      "ce"
    ],
    [
      "en",
      "ti"
    ],
    [
      "aprendi",
      "za"
    ],
    [
      "prome",
      "te"
    ],
    [
      "á",
      "ria"
    ],
    [
      "a",
      "g"
    ],
    [
      "tro",
      "p"
    ],
    [
      "ope",
      "ra"
    ],
    [
      "B",
      "ra"
    ],
    [
      "mes",
      "sa"
    ],
    [
      "u",
      "b"
    ],
    [
      "fo",
      "i"
    ],
    [
      "ci",
      "ent"
    ],
    [
      "me",
      "di"
    ],
    [
      "algor",
      "it"
    ],
    [
      "pres",
      "er"
    ],
    [
      "t",
      "ing"
    ],
    [
      "áve",
      "is."
    ],
    [
      "grá",
      "ficos"
    ],
    [
      "c",
      "l"
    ],
    [
      "bus",
      "ca"
    ],
    [
      "b",
      "ro"
    ],
    [
      "ma",
      "teria"
    ],
    [
      "Bra",
      "si"
    ],
    [
      "po",
      "der"
    ],
    [
      "p",
      "on"
    ],
    [
      "entra",
      "liza"
    ],
    [
      "n",
      "ão"
    ],
    [
      "rea",
      "lidade"
    ],
    [
      "Rea",
      "ct"
    ],
    [
      "do",
      "en"
    ],
    [
      "neu",
      "ra"
    ],
    [
      "usa",
      "ndo"
    ],
    [
      "micros",
      "ervi"
    ],
    [
      "web",
      "."
    ],
    [
      "c",
      "é"
    ],
    [
      "bi",
      "g"
    ],
    [
      "C",
      "SS"
    ],
    [
      "algorit",
      "mos"
    ],
    [
      "wa",
      "re"
    ],
    [
      "aces",
      "so"
    ],
    [
      "comp",
      "i"
    ],
    [
      "g",
      "ência"
    ],
    [
      "C",
      "ha"
    ],
    [
      "I",
      "n"
    ],
    [
      "co",
      "r"
    ],
    [
      "mai",
      "or"
    ],
    [
      "J",
      "VM"
    ],
    [
      "c",
      "is"
    ],
    [
      "mem",
      "ória"
    ],
    [
      "pa",
      "che"
    ],
    [
      "di",
      "ciona"
    ],
    [
      "I",
      "C"
    ],
    [
      "t",
      "ência"
    ],
    [
      "qua",
      "lidade"
    ],
    [
      "organ",
      "ismos"
    ],
    [
      "s",
      "ua"
    ],
    [
      "ta",
      "."
    ],
    [
      "ti",
      "fi"
    ],
    [
      "ava",
      "nça"
    ],
    [
      "fa",
      "ci"
    ],
    [
      "b",
      "li"
    ],
    [
      "cur",
      "sos"
    ],
    [
      "b",
      "o"
    ],
    [
      "ca",
      "che"
    ],
    [
      "h",
      "ist"
    ],
    [
      "do",
      "r"
    ],
    [
      "or",
      "i"
    ],
    [
      "mi",
      "cos"
    ],
    [
      "ta",
      "xe"
    ],
    [
      "espe",
      "c"
    ],
    [
      "ma",
      "ção"
    ],
    [
      "compi",
      "la"
    ],
    [
      "de",
      "pen"
    ],
    [
      "in",
      "an"
    ],
    [
      "es",
      "tra"
    ],
    [
      "A",
      "r"
    ],
    [
      "proces",
      "sos"
    ],
    [
      "i",
      "l"
    ],
    [
      "ci",
      "ente"
    ],
    [
      "le",
      "ra"
    ],
    [
      "vi",
      "da"
    ],
    [
      "muda",
      "nças"
    ],
    [
      "ace",
      "lera"
    ],
    [
      "p",
      "ú"
    ],
    [
      "sin",
      "taxe"
    ],
    [
      "da",
      "dos."
    ],
    [
      "le",
      "ve"
    ],
    [
      "tra",
      "bal"
    ],
    [
      "releva",
      "nte"
    ],
    [
      "re",
      "pres"
    ],
    [
      "analytic",
      "s"
    ],
    [
      "mun",
      "dia"
    ],
    [
      "o",
      "te"
    ],
    [
      "b",
      "ri"
    ],
    [
      "faci",
      "li"
    ],
    [
      "a",
      "t"
    ],
    [
      "u",
      "d"
    ],
    [
      "J",
      "S"
    ],
    [
      "con",
      "t"
    ],
    [
      "fun",
      "ciona"
    ],
    [
      "inter",
      "fa"
    ],
    [
      "tr",
      "os"
    ],
    [
      "liza",
      "ção"
    ],
    [
      "inclu",
      "indo"
    ],
    [
      "A",
      "pache"
    ],
    [
      "compre",
      "ens"
    ],
    [
      "en",
      "er"
    ],
    [
      "os",
      ","
    ],
    [
      "le",
      "."
    ],
    [
      "repres",
      "enta"
    ],
    [
      "par",
      "ti"
    ],
    [
      "l",
      "in"
    ],
    [
      "compreens",
      "ão"
    ],
    [
      "conhe",
      "ci"
    ],
    [
      "padr",
      "ão"
    ],
    [
      "j",
      "og"
    ],
    [
      "ál",
      "is"
    ],
    [
      "e",
      "w"
    ],
    [
      "du",
      "z"
    ],
    [
      "múlti",
      "p"
    ],
    [
      "difer",
      "entes"
    ],
    [
      "te",
      "."
    ],
    [
      "ális",
      "e"
    ],
    [
      "so",
      "na"
    ],
    [
      "na",
      "tiva"
    ],
    [
      "progra",
      "mação"
    ],
    [
      "â",
      "n"
    ],
    [
      "ar",
      "tifi"
    ],
    [
      "k",
      "er"
    ],
    [
      "per",
      "sona"
    ],
    [
      "imp",
      "le"
    ],
    [
      "mode",
      "la"
    ],
    [
      "re",
      "cursos"
    ],
    [
      "armazena",
      "mento"
    ],
    [
      "c",
      "ina"
    ],
    [
      "ca",
      "r"
    ],
    [
      "di",
      "o"
    ],
    [
      "auto",
      "ma"
    ],
    [
      "ote",
      "ca"
    ],
    [
      "la",
      "s"
    ],
    [
      "ra",
      "nte"
    ],
    [
      "cé",
      "re"
    ],
    [
      "complex",
      "as."
    ],
    [
      "distribu",
      "i"
    ],
    [
      "teor",
      "ia"
    ],
    [
      "in",
      "am"
    ],
    [
      "id",
      "enti"
    ],
    [
      "in",
      "di"
    ],
    [
      "L",
      "a"
    ],
    [
      "r",
      "u"
    ],
    [
      "tu",
      "ro"
    ],
    [
      "OL",
      "OG"
    ],
    [
      "en",
      "as"
    ],
    [
      "e",
      "fi"
    ],
    [
      "con",
      "tex"
    ],
    [
      "mente",
      "."
    ],
    [
      "Brasi",
      "l"
    ],
    [
      "con",
      "tra"
    ],
    [
      "múltip",
      "los"
    ],
    [
      "pla",
      "s"
    ],
    [
      "est",
      "á"
    ],
    [
      "tiva",
      "s."
    ],
    [
      "fu",
      "turo"
    ],
    [
      "co",
      "."
    ]
  ],
  "vocab_size": 1000
}